memory_initialization_radix=10;
memory_initialization_vector=
2,
-18,
6,
-69,
86,
8,
-20,
-101,
32,
24,
-9,
-75,
-42,
-8,
58,
2,
-63,
-9,
23,
-10,
45,
24,
-47,
74,
25,
32,
7,
-6,
73,
-38,
-16,
-14,
-71,
18,
-3,
-49,
10,
-47,
-75,
21,
-41,
-19,
7,
-24,
104,
58,
83,
11,
-46,
71,
-6,
30,
0,
13,
-58,
21,
-25,
-14,
44,
42,
41,
22,
52,
-9,
-12,
-11,
71,
43,
45,
37,
29,
-3,
17,
-19,
7,
-3,
4,
37,
58,
-21,
37,
-77,
49,
-36,
44,
-30,
1,
27,
-14,
-2,
-9,
42,
-26,
-4,
66,
11,
-8,
-38,
56,
20,
60,
32,
71,
-18,
-35,
50,
13,
-4,
-33,
-22,
31,
55,
77,
47,
50,
25,
35,
56,
-54,
-54,
26,
61,
32,
-35,
-51,
12,
-48,
-17,
-46,
25,
-5,
-23,
56,
31,
28,
-26,
39,
-30,
-38,
-39,
-1,
13,
67,
67,
18,
-52,
2,
38,
62,
19,
42,
45,
30,
28,
-54,
59,
72,
-47,
8,
4,
12,
-1,
0,
-26,
-29,
3,
11,
6,
52,
47,
13,
55,
127,
2,
16,
-25,
-47,
42,
12,
-4,
-15,
-26,
14,
81,
-1,
21,
51,
20,
5,
-23,
68,
50,
56,
-18,
74,
11,
49,
53,
-4,
53,
26,
13,
-27,
26,
13,
18,
-31,
52,
-15,
-25,
63,
79,
3,
10,
44,
71,
47,
-34,
18,
35,
-43,
-38,
21,
44,
42,
13,
80,
50,
56,
-12,
35,
-14,
62,
-28,
-59,
-27,
24,
75,
8,
54,
-44,
54,
-70,
-49,
-49,
-36,
-5,
-33,
-26,
-38,
80,
-49,
36,
2,
35,
-23,
-2,
15,
46,
-48,
17,
-46,
60,
-88,
-6,
-42,
38,
-5,
-63,
66,
-2,
0,
0,
-80,
29,
6,
37,
23,
47,
57,
43,
-14,
-45,
36,
47,
9,
70,
15,
71,
-94,
115,
80,
-3,
5,
27,
-13,
88,
43,
-38,
82,
26,
49,
13,
29,
-19,
-22,
48,
41,
-12,
43,
-8,
70,
10,
11,
51,
70,
26,
12,
24,
41,
32,
67,
71,
48,
-11,
-26,
34,
5,
55,
-44,
42,
18,
-9,
39,
48,
60,
65,
49,
38,
70,
57,
-16,
2,
62,
48,
12,
-10,
-9,
-11,
45,
-9,
70,
10,
-5,
3,
44,
78,
-4,
56,
-57,
58,
47,
-20,
28,
-74,
73,
-19,
72,
-29,
34,
-42,
-19,
-42,
6,
-53,
-40,
-1,
-39,
71,
-8,
12,
55,
-33,
-44;
